#include <cstdint>

#include "tensorflow/lite/micro/examples/memory_footprint/models/simple_add_model_model_data.h"

alignas(16) const unsigned char g_simple_add_model_model_data[] = {0x20,0x0,0x0,0x0,0x54,0x46,0x4c,0x33,0x0,0x0,0x0,0x0,0x14,0x0,0x20,0x0,0x1c,0x0,0x18,0x0,0x14,0x0,0x10,0x0,0xc,0x0,0x0,0x0,0x8,0x0,0x4,0x0,0x14,0x0,0x0,0x0,0x1c,0x0,0x0,0x0,0xa4,0x0,0x0,0x0,0xd4,0x0,0x0,0x0,0x1c,0x1,0x0,0x0,0x2c,0x1,0x0,0x0,0x7c,0x3,0x0,0x0,0x3,0x0,0x0,0x0,0x1,0x0,0x0,0x0,0x10,0x0,0x0,0x0,0x0,0x0,0xa,0x0,0x10,0x0,0xc,0x0,0x8,0x0,0x4,0x0,0xa,0x0,0x0,0x0,0xc,0x0,0x0,0x0,0x1c,0x0,0x0,0x0,0x34,0x0,0x0,0x0,0xf,0x0,0x0,0x0,0x73,0x65,0x72,0x76,0x69,0x6e,0x67,0x5f,0x64,0x65,0x66,0x61,0x75,0x6c,0x74,0x0,0x1,0x0,0x0,0x0,0x4,0x0,0x0,0x0,0xac,0xff,0xff,0xff,0x2,0x0,0x0,0x0,0x4,0x0,0x0,0x0,0x3,0x0,0x0,0x0,0x61,0x64,0x64,0x0,0x2,0x0,0x0,0x0,0x20,0x0,0x0,0x0,0x4,0x0,0x0,0x0,0xcc,0xff,0xff,0xff,0x1,0x0,0x0,0x0,0x4,0x0,0x0,0x0,0x7,0x0,0x0,0x0,0x69,0x6e,0x70,0x75,0x74,0x5f,0x32,0x0,0x9e,0xff,0xff,0xff,0x4,0x0,0x0,0x0,0x7,0x0,0x0,0x0,0x69,0x6e,0x70,0x75,0x74,0x5f,0x31,0x0,0x1,0x0,0x0,0x0,0xc,0x0,0x0,0x0,0x8,0x0,0xc,0x0,0x8,0x0,0x4,0x0,0x8,0x0,0x0,0x0,0x4,0x0,0x0,0x0,0x4,0x0,0x0,0x0,0x13,0x0,0x0,0x0,0x6d,0x69,0x6e,0x5f,0x72,0x75,0x6e,0x74,0x69,0x6d,0x65,0x5f,0x76,0x65,0x72,0x73,0x69,0x6f,0x6e,0x0,0x5,0x0,0x0,0x0,0x44,0x0,0x0,0x0,0x3c,0x0,0x0,0x0,0x34,0x0,0x0,0x0,0x2c,0x0,0x0,0x0,0xc,0x0,0x0,0x0,0x0,0x0,0x6,0x0,0x8,0x0,0x4,0x0,0x6,0x0,0x0,0x0,0x4,0x0,0x0,0x0,0x10,0x0,0x0,0x0,0x31,0x2e,0x31,0x34,0x2e,0x30,0x0,0x0,0x0,0x0,0x0,0x0,0x0,0x0,0x0,0x0,0x74,0xff,0xff,0xff,0x78,0xff,0xff,0xff,0x7c,0xff,0xff,0xff,0x80,0xff,0xff,0xff,0xf,0x0,0x0,0x0,0x4d,0x4c,0x49,0x52,0x20,0x43,0x6f,0x6e,0x76,0x65,0x72,0x74,0x65,0x64,0x2e,0x0,0x1,0x0,0x0,0x0,0x14,0x0,0x0,0x0,0x0,0x0,0xe,0x0,0x18,0x0,0x14,0x0,0x10,0x0,0xc,0x0,0x8,0x0,0x4,0x0,0xe,0x0,0x0,0x0,0x14,0x0,0x0,0x0,0x1c,0x0,0x0,0x0,0x60,0x0,0x0,0x0,0x64,0x0,0x0,0x0,0x6c,0x0,0x0,0x0,0x4,0x0,0x0,0x0,0x6d,0x61,0x69,0x6e,0x0,0x0,0x0,0x0,0x1,0x0,0x0,0x0,0x14,0x0,0x0,0x0,0x0,0x0,0xe,0x0,0x14,0x0,0x0,0x0,0x10,0x0,0xc,0x0,0xb,0x0,0x4,0x0,0xe,0x0,0x0,0x0,0x14,0x0,0x0,0x0,0x0,0x0,0x0,0xb,0x10,0x0,0x0,0x0,0x14,0x0,0x0,0x0,0x4,0x0,0x4,0x0,0x4,0x0,0x0,0x0,0x1,0x0,0x0,0x0,0x2,0x0,0x0,0x0,0x2,0x0,0x0,0x0,0x0,0x0,0x0,0x0,0x1,0x0,0x0,0x0,0x1,0x0,0x0,0x0,0x2,0x0,0x0,0x0,0x2,0x0,0x0,0x0,0x0,0x0,0x0,0x0,0x1,0x0,0x0,0x0,0x3,0x0,0x0,0x0,0x28,0x1,0x0,0x0,0x88,0x0,0x0,0x0,0x4,0x0,0x0,0x0,0xf8,0xfe,0xff,0xff,0x18,0x0,0x0,0x0,0x28,0x0,0x0,0x0,0x48,0x0,0x0,0x0,0x3,0x0,0x0,0x0,0x0,0x0,0x0,0x9,0x54,0x0,0x0,0x0,0x4,0x0,0x0,0x0,0xff,0xff,0xff,0xff,0x80,0x0,0x0,0x0,0x80,0x0,0x0,0x0,0x1,0x0,0x0,0x0,0xe4,0xfe,0xff,0xff,0x8,0x0,0x0,0x0,0x14,0x0,0x0,0x0,0x1,0x0,0x0,0x0,0xfd,0xff,0xff,0xff,0xff,0xff,0xff,0xff,0x0,0x0,0x0,0x0,0x1,0x0,0x0,0x0,0x27,0x1d,0x6f,0x3d,0x11,0x0,0x0,0x0,0x50,0x61,0x72,0x74,0x69,0x74,0x69,0x6f,0x6e,0x65,0x64,0x43,0x61,0x6c,0x6c,0x3a,0x30,0x0,0x0,0x0,0x4,0x0,0x0,0x0,0x1,0x0,0x0,0x0,0x80,0x0,0x0,0x0,0x80,0x0,0x0,0x0,0x1,0x0,0x0,0x0,0x78,0xff,0xff,0xff,0x18,0x0,0x0,0x0,0x28,0x0,0x0,0x0,0x48,0x0,0x0,0x0,0x2,0x0,0x0,0x0,0x0,0x0,0x0,0x9,0x5c,0x0,0x0,0x0,0x4,0x0,0x0,0x0,0xff,0xff,0xff,0xff,0x80,0x0,0x0,0x0,0x80,0x0,0x0,0x0,0x1,0x0,0x0,0x0,0x64,0xff,0xff,0xff,0x8,0x0,0x0,0x0,0x14,0x0,0x0,0x0,0x1,0x0,0x0,0x0,0xff,0xff,0xff,0xff,0xff,0xff,0xff,0xff,0x0,0x0,0x0,0x0,0x1,0x0,0x0,0x0,0x29,0xf1,0x28,0x3d,0x19,0x0,0x0,0x0,0x73,0x65,0x72,0x76,0x69,0x6e,0x67,0x5f,0x64,0x65,0x66,0x61,0x75,0x6c,0x74,0x5f,0x69,0x6e,0x70,0x75,0x74,0x5f,0x32,0x3a,0x30,0x0,0x0,0x0,0x4,0x0,0x0,0x0,0x1,0x0,0x0,0x0,0x80,0x0,0x0,0x0,0x80,0x0,0x0,0x0,0x1,0x0,0x0,0x0,0x14,0x0,0x1c,0x0,0x18,0x0,0x17,0x0,0x10,0x0,0xc,0x0,0x8,0x0,0x0,0x0,0x0,0x0,0x4,0x0,0x14,0x0,0x0,0x0,0x18,0x0,0x0,0x0,0x34,0x0,0x0,0x0,0x50,0x0,0x0,0x0,0x1,0x0,0x0,0x0,0x0,0x0,0x0,0x9,0x64,0x0,0x0,0x0,0x4,0x0,0x0,0x0,0xff,0xff,0xff,0xff,0x80,0x0,0x0,0x0,0x80,0x0,0x0,0x0,0x1,0x0,0x0,0x0,0xc,0x0,0xc,0x0,0x0,0x0,0x0,0x0,0x8,0x0,0x4,0x0,0xc,0x0,0x0,0x0,0x8,0x0,0x0,0x0,0x10,0x0,0x0,0x0,0x1,0x0,0x0,0x0,0xfe,0xff,0xff,0xff,0xff,0xff,0xff,0xff,0x1,0x0,0x0,0x0,0xa4,0xcf,0x26,0x3d,0x19,0x0,0x0,0x0,0x73,0x65,0x72,0x76,0x69,0x6e,0x67,0x5f,0x64,0x65,0x66,0x61,0x75,0x6c,0x74,0x5f,0x69,0x6e,0x70,0x75,0x74,0x5f,0x31,0x3a,0x30,0x0,0x0,0x0,0x4,0x0,0x0,0x0,0x1,0x0,0x0,0x0,0x80,0x0,0x0,0x0,0x80,0x0,0x0,0x0,0x1,0x0,0x0,0x0,0x1,0x0,0x0,0x0,0x10,0x0,0x0,0x0,0x0,0x0,0xa,0x0,0x8,0x0,0x0,0x0,0x0,0x0,0x4,0x0,0xa,0x0,0x0,0x0,0x2,0x0,0x0,0x0};
